ae
9c
9a
64
fd
4e
2a
7f
fd
00
00
00
00
00
00
00
c4
a8
eb
ec
e6
75
0d
7f
da
fd
2e
24
23
eb
e4
31
ed
0f
f1
e4
ff
d5
ce
2b
35
e8
d9
b1
d2
20
42
37
40
4e
50
fe
10
04
14
cf
d4
ea
12
0f
64
7f
62
6f
76
55
63
37
4e
ac
93
85
4b
0e
1b
3b
17
f0
c1
c4
ab
bb
c0
e1
ef
e2
e2
1c
f7
01
12
eb
d7
44
2d
3e
ff
fa
f5
00
ee
e0
1f
00
1b
25
e6
f2
12
43
ce
d8
07
f0
da
01
1f
d6
01
e1
23
05
ed
e3
eb
e8
df
f3
15
2c
d5
de
b1
0c
b2
55
e6
22
a9
d4
e2
02
03
48
dc
dc
5c
ea
26
50
43
b3
20
fc
e0
eb
15
0a
0f
33
f7
03
f4
f0
ad
08
b3
4b
e7
ee
ad
0a
bf
29
07
1c
12
f6
0b
03
f4
c9
cb
0d
18
24
d9
db
da
21
ad
1d
2a
e8
26
e1
03
d5
81
08
f9
11
ff
00
4a
fe
56
cb
d8
ee
f8
24
0a
e2
b4
02
03
da
14
26
b4
41
da
19
f4
12
0c
19
8c
bd
28
e0
b9
f7
c7
c0
df
5f
fe
05
f5
bd
d6
f5
28
eb
95
e5
3e
4f
21
18
46
d5
df
06
07
e5
02
fc
28
47
d4
08
32
ec
d0
e1
e1
dc
fc
8f
fa
09
ee
14
02
eb
c7
0e
07
1c
ed
ec
f2
02
de
02
09
1c
da
20
bf
d0
0b
d2
d6
00
e8
fe
71
01
43
21
25
e3
0b
05
b0
d4
25
2f
b8
da
b6
ac
81
47
c9
04
56
ff
ff
ff
b2
ff
ff
ff
a8
ff
ff
ff
d7
00
00
00
a3
00
00
00
9f
00
00
00
45
01
00
00
dd
fe
ff
ff
61
00
00
00
fe
ff
ff
ff
a8
ff
ff
ff
60
00
00
00
ac
ff
ff
ff
d9
00
00
00
e1
ff
ff
ff
12
01
00
00
6b
ff
ff
ff
2d
00
00
00
03
00
00
00
d1
ff
ff
ff
13
00
00
00
52
ff
ff
ff
2b
00
00
00
67
00
00
00
78
00
00
00
96
ff
ff
ff
cc
ff
ff
ff
aa
ff
ff
ff
26
ff
ff
ff
c9
ff
ff
ff
87
00
00
00
3b
00
00
00
f6
ff
ff
ff
96
01
00
00
23
ff
ff
ff
53
ff
ff
ff
f1
ff
ff
ff
e8
fe
ff
ff
04
01
00
00
07
07
07
06
07
00
00
00
00
00
00
00
00
00
00
00
00
00
00
00
00
00
00
00
00
00
00
00
00
00
00
00
00
00
00
00
