42
4d
45
44
57
47
54
31
01
00
09
00
80
02
00
00
17
0e
00
00
42
b6
20
fc
00
00
00
00
00
00
00
00
00
00
00
00
00
00
00
00
00
00
00
00
00
00
00
00
00
00
00
00
00
00
00
00
00
00
00
00
00
00
00
00
65
65
67
5f
63
6e
6e
00
00
00
00
00
00
00
00
00
01
00
00
00
00
03
00
00
00
00
00
00
00
02
00
00
c2
f7
53
b5
00
00
00
00
00
00
00
00
00
00
00
00
00
00
00
00
00
00
00
00
00
00
00
00
00
00
00
00
65
63
67
5f
63
6e
6e
00
00
00
00
00
00
00
00
00
01
00
00
00
00
05
00
00
00
10
00
00
00
02
00
00
0e
c2
2a
db
00
00
00
00
00
00
00
00
00
00
00
00
00
00
00
00
00
00
00
00
00
00
00
00
00
00
00
00
65
6d
67
5f
63
6e
6e
00
00
00
00
00
00
00
00
00
01
00
00
00
00
07
00
00
00
20
00
00
00
02
00
00
e9
16
0e
24
00
00
00
00
00
00
00
00
00
00
00
00
00
00
00
00
00
00
00
00
00
00
00
00
00
00
00
00
65
65
67
5f
73
63
61
6c
65
00
00
00
00
00
00
00
03
00
00
00
00
09
00
00
00
30
00
00
40
00
00
00
79
c8
0d
cb
00
00
00
00
00
00
00
00
00
00
00
00
00
00
00
00
00
00
00
00
00
00
00
00
00
00
00
00
65
63
67
5f
73
63
61
6c
65
00
00
00
00
00
00
00
03
00
00
00
00
0a
00
00
00
31
00
00
40
00
00
00
79
c8
0d
cb
00
00
00
00
00
00
00
00
00
00
00
00
00
00
00
00
00
00
00
00
00
00
00
00
00
00
00
00
65
6d
67
5f
73
63
61
6c
65
00
00
00
00
00
00
00
03
00
00
00
00
0b
00
00
00
32
00
00
40
00
00
00
c9
0b
13
7c
00
00
00
00
00
00
00
00
00
00
00
00
00
00
00
00
00
00
00
00
00
00
00
00
00
00
00
00
68
61
6d
6d
69
6e
67
00
00
00
00
00
00
00
00
00
02
00
00
00
00
0c
00
00
00
00
01
00
40
00
00
00
41
79
5b
23
00
00
00
00
00
00
00
00
00
00
00
00
00
00
00
00
00
00
00
00
00
00
00
00
00
00
00
00
74
77
69
64
64
6c
65
00
00
00
00
00
00
00
00
00
02
00
00
00
00
0d
00
00
00
10
01
00
20
00
00
00
ee
47
e8
15
00
00
00
00
00
00
00
00
00
00
00
00
00
00
00
00
00
00
00
00
00
00
00
00
00
00
00
00
69
6d
61
67
65
5f
6d
65
74
61
00
00
00
00
00
00
04
00
00
00
00
0e
00
00
00
20
01
00
17
00
00
00
74
b9
f9
69
00
00
00
00
00
00
00
00
00
00
00
00
00
00
00
00
00
00
00
00
00
00
00
00
00
00
00
00
00
00
00
00
00
00
00
00
00
00
00
00
00
00
00
00
00
00
00
00
00
00
00
00
00
00
00
00
00
00
00
00
00
00
00
00
00
00
00
00
00
00
00
00
00
00
00
00
00
00
00
00
00
00
00
00
00
00
00
00
00
00
00
00
00
00
00
00
00
00
00
00
00
00
00
00
00
00
00
00
00
00
00
00
00
00
00
00
00
00
00
00
00
00
00
00
00
00
00
00
00
00
00
00
00
00
00
00
00
00
00
00
00
00
00
00
00
00
00
00
00
00
00
00
00
00
00
00
ae
9c
9a
64
fd
4e
2a
7f
fd
00
00
00
00
00
00
00
c4
a8
eb
ec
e6
75
0d
7f
da
fd
2e
24
23
eb
e4
31
ed
0f
f1
e4
ff
d5
ce
2b
35
e8
d9
b1
d2
20
42
37
40
4e
50
fe
10
04
14
cf
d4
ea
12
0f
64
7f
62
6f
76
55
63
37
4e
ac
93
85
4b
0e
1b
3b
17
f0
c1
c4
ab
bb
c0
e1
ef
e2
e2
1c
f7
01
12
eb
d7
44
2d
3e
ff
fa
f5
00
ee
e0
1f
00
1b
25
e6
f2
12
43
ce
d8
07
f0
da
01
1f
d6
01
e1
23
05
ed
e3
eb
e8
df
f3
15
2c
d5
de
b1
0c
b2
55
e6
22
a9
d4
e2
02
03
48
dc
dc
5c
ea
26
50
43
b3
20
fc
e0
eb
15
0a
0f
33
f7
03
f4
f0
ad
08
b3
4b
e7
ee
ad
0a
bf
29
07
1c
12
f6
0b
03
f4
c9
cb
0d
18
24
d9
db
da
21
ad
1d
2a
e8
26
e1
03
d5
81
08
f9
11
ff
00
4a
fe
56
cb
d8
ee
f8
24
0a
e2
b4
02
03
da
14
26
b4
41
da
19
f4
12
0c
19
8c
bd
28
e0
b9
f7
c7
c0
df
5f
fe
05
f5
bd
d6
f5
28
eb
95
e5
3e
4f
21
18
46
d5
df
06
07
e5
02
fc
28
47
d4
08
32
ec
d0
e1
e1
dc
fc
8f
fa
09
ee
14
02
eb
c7
0e
07
1c
ed
ec
f2
02
de
02
09
1c
da
20
bf
d0
0b
d2
d6
00
e8
fe
71
01
43
21
25
e3
0b
05
b0
d4
25
2f
b8
da
b6
ac
81
47
c9
04
56
ff
ff
ff
b2
ff
ff
ff
a8
ff
ff
ff
d7
00
00
00
a3
00
00
00
9f
00
00
00
45
01
00
00
dd
fe
ff
ff
61
00
00
00
fe
ff
ff
ff
a8
ff
ff
ff
60
00
00
00
ac
ff
ff
ff
d9
00
00
00
e1
ff
ff
ff
12
01
00
00
6b
ff
ff
ff
2d
00
00
00
03
00
00
00
d1
ff
ff
ff
13
00
00
00
52
ff
ff
ff
2b
00
00
00
67
00
00
00
78
00
00
00
96
ff
ff
ff
cc
ff
ff
ff
aa
ff
ff
ff
26
ff
ff
ff
c9
ff
ff
ff
87
00
00
00
3b
00
00
00
f6
ff
ff
ff
96
01
00
00
23
ff
ff
ff
53
ff
ff
ff
f1
ff
ff
ff
e8
fe
ff
ff
04
01
00
00
07
07
07
06
07
00
00
00
00
00
00
00
00
00
00
00
00
00
00
00
00
00
00
00
00
00
00
00
00
00
00
00
00
00
00
00
59
7f
fc
31
79
0a
aa
0e
ad
00
00
00
00
00
00
00
a6
e6
bf
d2
54
c9
4a
7f
2d
09
12
f3
f3
fa
15
06
d7
3b
d9
28
7f
34
36
65
50
33
10
2d
2b
08
f8
e3
15
23
12
27
cd
08
d0
22
f4
ec
ff
db
0f
eb
e5
49
1a
18
57
2b
50
d3
13
fb
28
23
d1
d7
0d
d1
45
3e
56
f1
fd
df
f1
49
0b
34
12
dc
e7
44
42
dc
4c
06
db
02
2f
f9
34
f0
e0
ff
03
f2
ec
e1
1b
e3
3e
3b
04
45
4a
06
cf
fb
ff
21
04
e6
f8
e6
d6
f0
28
b8
e9
11
08
ee
bb
1f
14
1b
e2
a9
f2
24
03
dd
b6
1c
0a
d1
10
ea
ef
e3
ea
d9
34
fe
47
e0
e4
fe
30
36
f4
55
0d
24
11
f6
cb
04
e8
2e
49
1c
a5
f0
96
e4
15
42
35
2c
81
12
b5
c4
1c
be
29
d7
03
0e
21
bb
11
53
d4
1c
da
fc
4f
cf
f8
b7
04
d3
30
18
f7
a0
d4
ea
07
0d
0f
06
ec
30
06
55
f9
2f
fb
de
0b
12
ed
e9
12
0b
e2
d2
01
e4
20
11
c8
ec
51
24
df
24
df
1b
1b
ea
cd
d2
08
e7
02
7f
51
a7
ee
00
03
ff
16
d5
ed
fd
20
cd
0a
15
15
d2
fb
2a
39
2c
d7
e8
12
cf
14
1e
22
35
ef
31
39
09
ed
02
e0
ae
f8
e9
ed
06
ca
34
e0
2e
10
c2
c5
ed
e3
45
1a
65
23
d1
aa
22
f1
aa
ed
19
f6
22
2c
cb
b9
e1
aa
cd
01
f2
d5
ff
ff
ff
e8
ff
ff
ff
03
01
00
00
fe
ff
ff
ff
ff
ff
ff
ff
4a
ff
ff
ff
de
ff
ff
ff
b8
00
00
00
b7
ff
ff
ff
0d
00
00
00
2a
00
00
00
40
00
00
00
fe
ff
ff
ff
f4
ff
ff
ff
c2
ff
ff
ff
da
ff
ff
ff
35
00
00
00
cf
ff
ff
ff
9f
ff
ff
ff
ed
ff
ff
ff
b9
ff
ff
ff
f8
ff
ff
ff
19
00
00
00
f3
ff
ff
ff
48
00
00
00
8b
00
00
00
30
00
00
00
65
00
00
00
b8
ff
ff
ff
08
00
00
00
ce
ff
ff
ff
08
00
00
00
40
00
00
00
40
00
00
00
f5
ff
ff
ff
59
00
00
00
b4
00
00
00
7c
ff
ff
ff
96
ff
ff
ff
07
07
07
06
06
00
00
00
00
00
00
00
00
00
00
00
00
00
00
00
00
00
00
00
00
00
00
00
00
00
00
00
00
00
00
00
aa
8e
82
7f
50
75
2e
1f
57
00
00
00
00
00
00
00
ae
df
01
ec
a7
5e
7f
2c
17
26
e2
e1
31
26
12
23
09
ec
32
36
cd
2e
d7
22
ea
d5
4a
7f
72
33
25
1f
59
52
3a
70
63
6a
3e
64
61
48
02
6c
d3
fb
e9
17
f0
3f
30
ed
df
97
a3
a1
64
45
65
2c
11
18
2e
24
3b
12
03
f5
ea
4e
f4
02
27
08
0e
16
0b
e3
d7
d4
15
1d
35
20
16
fa
13
25
ec
fb
d6
10
1f
35
f0
0e
d7
f2
ec
14
da
e7
dd
01
f3
f7
35
0f
f7
f0
12
20
e0
25
08
fb
0f
e2
db
eb
08
02
ff
1e
d4
b9
97
1e
06
d6
d1
f8
fd
ff
1b
0c
e3
e1
ce
ca
3a
3c
bd
14
ed
ef
1a
f7
1b
d5
06
81
de
fa
b7
b7
02
27
1d
ca
e8
18
1e
2d
d8
b3
b2
49
02
11
50
35
18
28
18
25
0e
f9
c8
00
20
e0
2c
b8
22
d5
d4
ba
3b
46
d9
05
e8
d6
ce
ed
31
05
35
ea
19
d8
04
c7
d2
11
f2
f3
fc
f3
e3
1e
08
b1
fc
ed
3a
9e
29
f0
c5
17
e9
83
1b
39
e9
03
0a
6e
0e
ee
81
ad
2f
dd
bc
de
c8
ba
20
f4
fe
d9
d9
b8
cd
28
3d
eb
0f
da
d9
23
e3
ce
c6
16
0c
d4
0c
d8
11
08
39
54
c3
d9
34
1e
33
3c
f7
04
17
eb
ef
a2
fe
2e
3c
51
ef
c0
23
0a
2c
06
17
c6
24
f8
fe
2e
15
8a
d3
ee
2a
4c
b8
88
17
19
dd
ff
ff
ff
75
ff
ff
ff
c5
ff
ff
ff
41
01
00
00
2a
01
00
00
14
01
00
00
6e
00
00
00
bc
ff
ff
ff
c5
fe
ff
ff
f5
ff
ff
ff
e1
ff
ff
ff
a4
00
00
00
9d
00
00
00
1f
00
00
00
ad
ff
ff
ff
b1
ff
ff
ff
1e
01
00
00
1d
00
00
00
e9
ff
ff
ff
d7
ff
ff
ff
32
00
00
00
af
ff
ff
ff
ad
00
00
00
ac
ff
ff
ff
ad
ff
ff
ff
f5
ff
ff
ff
6c
ff
ff
ff
61
00
00
00
78
00
00
00
eb
ff
ff
ff
92
ff
ff
ff
fa
ff
ff
ff
93
ff
ff
ff
98
00
00
00
25
00
00
00
a8
ff
ff
ff
d3
ff
ff
ff
f8
fe
ff
ff
a0
ff
ff
ff
07
07
07
06
07
00
00
00
00
00
00
00
00
00
00
00
00
00
00
00
00
00
00
00
00
00
00
00
00
00
00
00
00
00
00
00
07
07
07
06
0a
00
00
00
00
00
00
00
00
00
00
00
00
00
00
00
00
00
00
00
00
00
00
00
00
00
00
00
00
00
00
00
00
00
00
00
00
00
00
00
00
00
00
00
00
00
00
00
00
00
00
00
00
00
00
00
00
00
00
00
00
00
00
00
00
00
00
00
00
00
00
00
00
00
00
00
00
00
00
00
00
00
00
00
00
00
00
00
00
00
00
00
00
00
00
00
00
00
00
00
00
00
00
00
00
00
00
00
00
00
00
00
00
00
00
00
00
00
00
00
00
00
00
00
00
00
00
00
00
00
00
00
00
00
00
00
00
00
00
00
00
00
00
00
00
00
00
00
00
00
00
00
00
00
00
00
00
00
00
00
00
00
00
00
00
00
00
00
00
00
00
00
00
00
00
00
00
00
00
00
00
00
00
00
00
00
00
00
00
00
00
00
00
00
00
00
00
00
00
00
00
00
00
00
00
00
00
00
00
00
00
00
00
00
00
00
00
00
00
00
00
00
00
00
00
00
00
00
00
00
00
00
00
00
00
00
00
00
00
00
00
00
00
00
00
00
00
00
00
00
00
00
07
07
07
06
0a
00
00
00
00
00
00
00
00
00
00
00
00
00
00
00
00
00
00
00
00
00
00
00
00
00
00
00
00
00
00
00
00
00
00
00
00
00
00
00
00
00
00
00
00
00
00
00
00
00
00
00
00
00
00
00
00
00
00
00
00
00
00
00
00
00
00
00
00
00
00
00
00
00
00
00
00
00
00
00
00
00
00
00
00
00
00
00
00
00
00
00
00
00
00
00
00
00
00
00
00
00
00
00
00
00
00
00
00
00
00
00
00
00
00
00
00
00
00
00
00
00
00
00
00
00
00
00
00
00
00
00
00
00
00
00
00
00
00
00
00
00
00
00
00
00
00
00
00
00
00
00
00
00
00
00
00
00
00
00
00
00
00
00
00
00
00
00
00
00
00
00
00
00
00
00
00
00
00
00
00
00
00
00
00
00
00
00
00
00
00
00
00
00
00
00
00
00
00
00
00
00
00
00
00
00
00
00
00
00
00
00
00
00
00
00
00
00
00
00
00
00
00
00
00
00
00
00
00
00
00
00
00
00
00
00
00
00
00
00
00
00
00
00
00
00
00
00
00
00
00
00
07
07
07
07
0b
00
00
00
00
00
00
00
00
00
00
00
00
00
00
00
00
00
00
00
00
00
00
00
00
00
00
00
00
00
00
00
00
00
00
00
00
00
00
00
00
00
00
00
00
00
00
00
00
00
00
00
00
00
00
00
00
00
00
00
00
00
00
00
00
00
00
00
00
00
00
00
00
00
00
00
00
00
00
00
00
00
00
00
00
00
00
00
00
00
00
00
00
00
00
00
00
00
00
00
00
00
00
00
00
00
00
00
00
00
00
00
00
00
00
00
00
00
00
00
00
00
00
00
00
00
00
00
00
00
00
00
00
00
00
00
00
00
00
00
00
00
00
00
00
00
00
00
00
00
00
00
00
00
00
00
00
00
00
00
00
00
00
00
00
00
00
00
00
00
00
00
00
00
00
00
00
00
00
00
00
00
00
00
00
00
00
00
00
00
00
00
00
00
00
00
00
00
00
00
00
00
00
00
00
00
00
00
00
00
00
00
00
00
00
00
00
00
00
00
00
00
00
00
00
00
00
00
00
00
00
00
00
00
00
00
00
00
00
00
00
00
00
00
00
00
00
00
00
00
00
00
14
15
17
1a
1e
23
29
30
38
41
4a
55
5f
6a
76
81
8d
99
a4
b0
bb
c5
cf
d8
e1
e8
ef
f4
f9
fc
ff
ff
ff
ff
fc
f9
f4
ef
e8
e1
d8
cf
c5
bb
b0
a4
99
8d
81
76
6a
5f
55
4a
41
38
30
29
23
1e
1a
17
15
14
00
00
00
00
00
00
00
00
00
00
00
00
00
00
00
00
00
00
00
00
00
00
00
00
00
00
00
00
00
00
00
00
00
00
00
00
00
00
00
00
00
00
00
00
00
00
00
00
00
00
00
00
00
00
00
00
00
00
00
00
00
00
00
00
00
00
00
00
00
00
00
00
00
00
00
00
00
00
00
00
00
00
00
00
00
00
00
00
00
00
00
00
00
00
00
00
00
00
00
00
00
00
00
00
00
00
00
00
00
00
00
00
00
00
00
00
00
00
00
00
00
00
00
00
00
00
00
00
00
00
00
00
00
00
00
00
00
00
00
00
00
00
00
00
00
00
00
00
00
00
00
00
00
00
00
00
00
00
00
00
00
00
00
00
00
00
00
00
00
00
00
00
00
00
00
00
00
00
00
00
00
00
00
00
00
00
00
00
00
00
00
00
00
b1
c5
3f
21
71
37
79
41
9a
8e
2b
7e
94
7c
46
00
ba
84
6c
82
d5
72
66
bf
87
c9
8f
df
c1
3b
4f
00
00
00
00
00
00
00
00
00
00
00
00
00
00
00
00
00
00
00
00
00
00
00
00
00
00
00
00
00
00
00
00
00
00
00
00
00
00
00
00
00
00
00
00
00
00
00
00
00
00
00
00
00
00
00
00
00
00
00
00
00
00
00
00
00
00
00
00
00
00
00
00
00
00
00
00
00
00
00
00
00
00
00
00
00
00
00
00
00
00
00
00
00
00
00
00
00
00
00
00
00
00
00
00
00
00
00
00
00
00
00
00
00
00
00
00
00
00
00
00
00
00
00
00
00
00
00
00
00
00
00
00
00
00
00
00
00
00
00
00
00
00
00
00
00
00
00
00
00
00
00
00
00
00
00
00
00
00
00
00
00
00
00
00
00
00
00
00
00
00
00
00
00
00
00
00
00
00
00
00
00
00
00
00
00
00
00
00
00
00
00
00
00
00
00
00
00
00
00
00
00
00
00
00
00
00
00
00
00
00
00
00
00
00
00
00
00
00
00
00
00
00
00
00
62
69
6f
6d
65
64
2d
77
65
69
67
68
74
2d
69
6d
61
67
65
2d
76
31
0a
